/*
 * Copyright (c) 2026 EdgeImpulse Inc.
 *
 * Generated by Edge Impulse and licensed under the applicable Edge Impulse
 * Terms of Service. Community and Professional Terms of Service
 * (https://edgeimpulse.com/legal/terms-of-service) or Enterprise Terms of
 * Service (https://edgeimpulse.com/legal/enterprise-terms-of-service),
 * according to your product plan subscription (the “License”).
 *
 * This software, documentation and other associated files (collectively referred
 * to as the “Software”) is a single SDK variation generated by the Edge Impulse
 * platform and requires an active paid Edge Impulse subscription to use this
 * Software for any purpose.
 *
 * You may NOT use this Software unless you have an active Edge Impulse subscription
 * that meets the eligibility requirements for the applicable License, subject to
 * your full and continued compliance with the terms and conditions of the License,
 * including without limitation any usage restrictions under the applicable License.
 *
 * If you do not have an active Edge Impulse product plan subscription, or if use
 * of this Software exceeds the usage limitations of your Edge Impulse product plan
 * subscription, you are not permitted to use this Software and must immediately
 * delete and erase all copies of this Software within your control or possession.
 * Edge Impulse reserves all rights and remedies available to enforce its rights.
 *
 * Unless required by applicable law or agreed to in writing, the Software is
 * distributed on an "AS IS" BASIS, WITHOUT WARRANTIES OR CONDITIONS OF ANY KIND,
 * either express or implied. See the License for the specific language governing
 * permissions, disclaimers and limitations under the License.
 */

#ifndef _EI_CLASSIFIER_TFLITE_LEARN_1008244_5_H_
#define _EI_CLASSIFIER_TFLITE_LEARN_1008244_5_H_

#define EI_CLASSIFIER_TFLITE_LEARN_1008244_5_ARENA_SIZE     6265
const size_t tflite_learn_1008244_5_arena_size = 6265;

#if defined __GNUC__
#define ALIGN(X) __attribute__((aligned(X)))
#elif defined _MSC_VER
#define ALIGN(X) __declspec(align(X))
#elif defined __TASKING__
#define ALIGN(X) __align(X)
#else
#define ALIGN(X)
#endif

#if defined(EI_MODEL_SECTION) && (defined(__GNUC__) || defined(__clang__))
#define STRINGIZE(x) #x
#define STRINGIZE_VALUE_OF(x) STRINGIZE(x)
#define MODEL_SECTION(X) __attribute__((section(STRINGIZE_VALUE_OF(X))))
#else
#define MODEL_SECTION(X)
#endif


MODEL_SECTION(EI_MODEL_SECTION) ALIGN(16) const unsigned char tflite_learn_1008244_5[] = {
  0x1c, 0x00, 0x00, 0x00, 0x54, 0x46, 0x4c, 0x33, 0x14, 0x00, 0x20, 0x00,
  0x1c, 0x00, 0x18, 0x00, 0x14, 0x00, 0x10, 0x00, 0x0c, 0x00, 0x00, 0x00,
  0x08, 0x00, 0x04, 0x00, 0x14, 0x00, 0x00, 0x00, 0x1c, 0x00, 0x00, 0x00,
  0x8c, 0x00, 0x00, 0x00, 0x0c, 0x01, 0x00, 0x00, 0x84, 0x09, 0x00, 0x00,
  0x94, 0x09, 0x00, 0x00, 0xa8, 0x18, 0x00, 0x00, 0x03, 0x00, 0x00, 0x00,
  0x01, 0x00, 0x00, 0x00, 0x10, 0x00, 0x00, 0x00, 0x00, 0x00, 0x0a, 0x00,
  0x10, 0x00, 0x0c, 0x00, 0x08, 0x00, 0x04, 0x00, 0x0a, 0x00, 0x00, 0x00,
  0x0c, 0x00, 0x00, 0x00, 0x1c, 0x00, 0x00, 0x00, 0x3c, 0x00, 0x00, 0x00,
  0x0f, 0x00, 0x00, 0x00, 0x73, 0x65, 0x72, 0x76, 0x69, 0x6e, 0x67, 0x5f,
  0x64, 0x65, 0x66, 0x61, 0x75, 0x6c, 0x74, 0x00, 0x01, 0x00, 0x00, 0x00,
  0x04, 0x00, 0x00, 0x00, 0x74, 0xff, 0xff, 0xff, 0x16, 0x00, 0x00, 0x00,
  0x04, 0x00, 0x00, 0x00, 0x08, 0x00, 0x00, 0x00, 0x6f, 0x75, 0x74, 0x70,
  0x75, 0x74, 0x5f, 0x30, 0x00, 0x00, 0x00, 0x00, 0x01, 0x00, 0x00, 0x00,
  0x04, 0x00, 0x00, 0x00, 0x56, 0xf6, 0xff, 0xff, 0x04, 0x00, 0x00, 0x00,
  0x01, 0x00, 0x00, 0x00, 0x78, 0x00, 0x00, 0x00, 0x03, 0x00, 0x00, 0x00,
  0x5c, 0x00, 0x00, 0x00, 0x2c, 0x00, 0x00, 0x00, 0x04, 0x00, 0x00, 0x00,
  0xb8, 0xff, 0xff, 0xff, 0x1a, 0x00, 0x00, 0x00, 0x04, 0x00, 0x00, 0x00,
  0x13, 0x00, 0x00, 0x00, 0x43, 0x4f, 0x4e, 0x56, 0x45, 0x52, 0x53, 0x49,
  0x4f, 0x4e, 0x5f, 0x4d, 0x45, 0x54, 0x41, 0x44, 0x41, 0x54, 0x41, 0x00,
  0xdc, 0xff, 0xff, 0xff, 0x19, 0x00, 0x00, 0x00, 0x04, 0x00, 0x00, 0x00,
  0x13, 0x00, 0x00, 0x00, 0x6d, 0x69, 0x6e, 0x5f, 0x72, 0x75, 0x6e, 0x74,
  0x69, 0x6d, 0x65, 0x5f, 0x76, 0x65, 0x72, 0x73, 0x69, 0x6f, 0x6e, 0x00,
  0x08, 0x00, 0x0c, 0x00, 0x08, 0x00, 0x04, 0x00, 0x08, 0x00, 0x00, 0x00,
  0x18, 0x00, 0x00, 0x00, 0x04, 0x00, 0x00, 0x00, 0x13, 0x00, 0x00, 0x00,
  0x6d, 0x69, 0x6e, 0x5f, 0x72, 0x75, 0x6e, 0x74, 0x69, 0x6d, 0x65, 0x5f,
  0x76, 0x65, 0x72, 0x73, 0x69, 0x6f, 0x6e, 0x00, 0x1b, 0x00, 0x00, 0x00,
  0x74, 0x08, 0x00, 0x00, 0x6c, 0x08, 0x00, 0x00, 0x4c, 0x08, 0x00, 0x00,
  0x2c, 0x08, 0x00, 0x00, 0x0c, 0x08, 0x00, 0x00, 0xec, 0x07, 0x00, 0x00,
  0xd4, 0x07, 0x00, 0x00, 0xb4, 0x07, 0x00, 0x00, 0x64, 0x04, 0x00, 0x00,
  0x14, 0x04, 0x00, 0x00, 0x84, 0x02, 0x00, 0x00, 0x54, 0x02, 0x00, 0x00,
  0x0c, 0x01, 0x00, 0x00, 0x04, 0x01, 0x00, 0x00, 0xfc, 0x00, 0x00, 0x00,
  0xf4, 0x00, 0x00, 0x00, 0xec, 0x00, 0x00, 0x00, 0xe4, 0x00, 0x00, 0x00,
  0xdc, 0x00, 0x00, 0x00, 0xd4, 0x00, 0x00, 0x00, 0xcc, 0x00, 0x00, 0x00,
  0xc4, 0x00, 0x00, 0x00, 0xbc, 0x00, 0x00, 0x00, 0xb4, 0x00, 0x00, 0x00,
  0x94, 0x00, 0x00, 0x00, 0x74, 0x00, 0x00, 0x00, 0x04, 0x00, 0x00, 0x00,
  0x5a, 0xf7, 0xff, 0xff, 0x04, 0x00, 0x00, 0x00, 0x60, 0x00, 0x00, 0x00,
  0x0c, 0x00, 0x00, 0x00, 0x08, 0x00, 0x0e, 0x00, 0x08, 0x00, 0x04, 0x00,
  0x08, 0x00, 0x00, 0x00, 0x10, 0x00, 0x00, 0x00, 0x28, 0x00, 0x00, 0x00,
  0x00, 0x00, 0x06, 0x00, 0x08, 0x00, 0x04, 0x00, 0x06, 0x00, 0x00, 0x00,
  0x04, 0x00, 0x00, 0x00, 0x01, 0x00, 0x00, 0x00, 0xeb, 0x03, 0x00, 0x00,
  0x0c, 0x00, 0x18, 0x00, 0x14, 0x00, 0x10, 0x00, 0x0c, 0x00, 0x04, 0x00,
  0x0c, 0x00, 0x00, 0x00, 0x9f, 0x58, 0xe7, 0x4f, 0xd7, 0x15, 0x22, 0x83,
  0x03, 0x00, 0x00, 0x00, 0x02, 0x00, 0x00, 0x00, 0x04, 0x00, 0x00, 0x00,
  0x06, 0x00, 0x00, 0x00, 0x32, 0x2e, 0x31, 0x39, 0x2e, 0x31, 0x00, 0x00,
  0xc6, 0xf7, 0xff, 0xff, 0x04, 0x00, 0x00, 0x00, 0x10, 0x00, 0x00, 0x00,
  0x00, 0x00, 0x00, 0x00, 0x00, 0x00, 0x00, 0x00, 0x00, 0x00, 0x00, 0x00,
  0x00, 0x00, 0x00, 0x00, 0xe2, 0xf7, 0xff, 0xff, 0x04, 0x00, 0x00, 0x00,
  0x10, 0x00, 0x00, 0x00, 0x31, 0x2e, 0x31, 0x34, 0x2e, 0x30, 0x00, 0x00,
  0x00, 0x00, 0x00, 0x00, 0x00, 0x00, 0x00, 0x00, 0x14, 0xea, 0xff, 0xff,
  0x18, 0xea, 0xff, 0xff, 0x1c, 0xea, 0xff, 0xff, 0x20, 0xea, 0xff, 0xff,
  0x24, 0xea, 0xff, 0xff, 0x28, 0xea, 0xff, 0xff, 0x2c, 0xea, 0xff, 0xff,
  0x30, 0xea, 0xff, 0xff, 0x34, 0xea, 0xff, 0xff, 0x38, 0xea, 0xff, 0xff,
  0x3c, 0xea, 0xff, 0xff, 0x2a, 0xf8, 0xff, 0xff, 0x04, 0x00, 0x00, 0x00,
  0x38, 0x01, 0x00, 0x00, 0xa6, 0xa9, 0x1a, 0x02, 0xaf, 0xc5, 0xe8, 0xfc,
  0xf6, 0x30, 0xfd, 0xec, 0xe5, 0xd5, 0xef, 0xdd, 0xde, 0xa9, 0xbd, 0x17,
  0x2c, 0x1b, 0xe9, 0xfa, 0xd4, 0xf7, 0x23, 0x09, 0xce, 0xea, 0x81, 0xbf,
  0x2f, 0x0a, 0xce, 0xff, 0xea, 0xea, 0x34, 0xa6, 0x81, 0x24, 0x09, 0x69,
  0x18, 0xcf, 0x01, 0xfd, 0x0a, 0x19, 0x30, 0x02, 0xd3, 0xa2, 0xeb, 0x06,
  0x27, 0x1a, 0x1c, 0xe3, 0x28, 0xe9, 0xee, 0xfb, 0x02, 0xe5, 0xac, 0xb3,
  0x96, 0xa9, 0xe9, 0xf8, 0xd8, 0xd1, 0xfa, 0xe3, 0x09, 0x07, 0x88, 0xe8,
  0xf5, 0xf4, 0xe7, 0xfe, 0xf0, 0x07, 0xea, 0xf7, 0x0b, 0x0b, 0xf4, 0x81,
  0xf2, 0x0b, 0xfc, 0xfd, 0x2d, 0x18, 0x03, 0x0a, 0x07, 0x03, 0x00, 0xfc,
  0xb3, 0x2c, 0x01, 0xef, 0xcb, 0xde, 0xfc, 0x05, 0xf8, 0x01, 0xf6, 0xec,
  0x0a, 0xae, 0x1a, 0xf9, 0x0a, 0x22, 0x4f, 0x33, 0x2e, 0x27, 0x0a, 0x13,
  0x1f, 0xfa, 0xf3, 0x54, 0x11, 0x48, 0x55, 0x6d, 0x2a, 0x37, 0x1e, 0x0b,
  0x0f, 0x1b, 0x09, 0xd7, 0x7f, 0x28, 0x50, 0x61, 0x3d, 0x06, 0x28, 0x33,
  0xfa, 0x11, 0x28, 0xf7, 0xfe, 0x29, 0x15, 0xf8, 0xf4, 0xcd, 0xef, 0xfb,
  0x06, 0x02, 0x03, 0xf0, 0x00, 0x08, 0xc7, 0xfd, 0xf7, 0xf0, 0xf1, 0xff,
  0x06, 0xfc, 0xf2, 0xfa, 0xfa, 0xfd, 0x3b, 0x81, 0xea, 0xe1, 0xeb, 0xee,
  0xfc, 0xfe, 0xfc, 0x09, 0xf4, 0xfe, 0x02, 0x02, 0x3f, 0x7f, 0x47, 0x66,
  0x6a, 0x45, 0x19, 0x29, 0x28, 0xe2, 0x0b, 0x17, 0x20, 0x3c, 0x46, 0x2c,
  0x63, 0x25, 0x01, 0xf9, 0x03, 0xee, 0xe8, 0x0d, 0x17, 0x0c, 0x2a, 0x06,
  0x13, 0x12, 0xd2, 0xd7, 0xcb, 0xd9, 0xed, 0xec, 0xec, 0x15, 0x7f, 0x2a,
  0xdf, 0xf1, 0xdb, 0xe6, 0xf9, 0xfb, 0xdc, 0x0d, 0xee, 0xf4, 0xf8, 0x3f,
  0x21, 0xd8, 0xeb, 0xec, 0xf7, 0x18, 0x05, 0xe1, 0xef, 0xf2, 0x02, 0xf8,
  0x1c, 0x15, 0xe7, 0x04, 0x0a, 0x22, 0xff, 0x0a, 0xe6, 0xf1, 0xf9, 0x12,
  0x05, 0x68, 0x7f, 0x1c, 0x28, 0xa0, 0xa3, 0xd0, 0xf2, 0x0c, 0xfd, 0x08,
  0x01, 0xf7, 0x61, 0x4b, 0x5d, 0x0d, 0xeb, 0xaa, 0xde, 0xf4, 0xf7, 0x1e,
  0x05, 0xf3, 0xe3, 0x7a, 0x71, 0x3e, 0x2a, 0x9d, 0x8d, 0xe3, 0x22, 0x09,
  0x2c, 0xf7, 0xec, 0x0a, 0x6e, 0xf9, 0xff, 0xff, 0x04, 0x00, 0x00, 0x00,
  0x20, 0x00, 0x00, 0x00, 0x9b, 0xf3, 0xff, 0xff, 0xda, 0x0c, 0x00, 0x00,
  0xa8, 0x02, 0x00, 0x00, 0x53, 0xf6, 0xff, 0xff, 0x7c, 0xfa, 0xff, 0xff,
  0xc8, 0xde, 0xff, 0xff, 0x38, 0xeb, 0xff, 0xff, 0x07, 0xc0, 0xff, 0xff,
  0x9a, 0xf9, 0xff, 0xff, 0x04, 0x00, 0x00, 0x00, 0x80, 0x01, 0x00, 0x00,
  0xda, 0x28, 0xf3, 0x01, 0x2d, 0x15, 0xc6, 0x81, 0xa7, 0xe8, 0xc5, 0xfe,
  0x93, 0x07, 0x03, 0xb4, 0xcb, 0xe7, 0xb7, 0xec, 0xb1, 0xff, 0x64, 0xdb,
  0xf0, 0xa3, 0xf2, 0x16, 0xf3, 0x3b, 0xd4, 0x02, 0x0b, 0x98, 0xd3, 0xe8,
  0x0f, 0xf6, 0xfc, 0x07, 0x16, 0x81, 0xe4, 0x92, 0x14, 0x8b, 0x1a, 0xfe,
  0x0a, 0xf2, 0x11, 0xd4, 0xfd, 0xee, 0xf6, 0x2e, 0xf8, 0xb1, 0xb7, 0xe3,
  0xf8, 0xf8, 0xf7, 0xef, 0x04, 0x81, 0x85, 0xf9, 0x0b, 0x16, 0x00, 0x19,
  0x0a, 0x0a, 0x0f, 0xd1, 0xf3, 0xbd, 0x05, 0xfb, 0x07, 0xf1, 0xec, 0x97,
  0xfa, 0xaf, 0xfe, 0xf7, 0xfc, 0x81, 0xc6, 0x99, 0xf8, 0xdf, 0x02, 0x29,
  0x02, 0x89, 0x86, 0xf0, 0xfb, 0x00, 0x22, 0x39, 0xe6, 0xff, 0xf0, 0xcb,
  0x01, 0x13, 0xe4, 0xe4, 0xe1, 0x12, 0xe2, 0x81, 0x2b, 0xd6, 0xe1, 0x97,
  0xa5, 0x01, 0xfb, 0x00, 0xe0, 0xfe, 0xad, 0xcf, 0x81, 0x05, 0x00, 0x00,
  0xe2, 0xf0, 0x94, 0xd2, 0xcc, 0xfe, 0x0a, 0x01, 0xb0, 0xef, 0xbe, 0xdc,
  0x02, 0x81, 0x94, 0xd9, 0x0d, 0xdc, 0xf0, 0x0f, 0x07, 0xc1, 0xca, 0xd2,
  0xfa, 0xfc, 0x00, 0xe7, 0xde, 0xf2, 0xd5, 0x46, 0xeb, 0xe4, 0x0b, 0xda,
  0xff, 0xf7, 0x0b, 0x02, 0xf5, 0xf7, 0xdd, 0x81, 0xf0, 0xfc, 0x00, 0x06,
  0xf8, 0xfa, 0xf5, 0xb2, 0xed, 0xf7, 0xea, 0xf0, 0x2c, 0xf5, 0x33, 0xb0,
  0x08, 0xe6, 0xb4, 0xeb, 0x08, 0xb3, 0x27, 0x0a, 0xfc, 0xfb, 0x81, 0x08,
  0xf9, 0xe1, 0xf5, 0xd9, 0xad, 0xf4, 0xc4, 0x16, 0xba, 0xe7, 0xfc, 0xcd,
  0xd8, 0xcf, 0xfc, 0x12, 0xca, 0x0f, 0xd4, 0xf8, 0xef, 0x87, 0xbc, 0xfd,
  0xfa, 0x0f, 0xf2, 0xfe, 0x27, 0x81, 0xc5, 0xd2, 0x15, 0x0a, 0x0b, 0x0b,
  0x16, 0xeb, 0xef, 0xff, 0x0e, 0xbd, 0x41, 0xed, 0x97, 0xf7, 0x00, 0xfd,
  0x9d, 0xfa, 0xd8, 0xd8, 0x81, 0xec, 0x00, 0x0f, 0x82, 0x25, 0xce, 0xee,
  0x1c, 0xc2, 0xb8, 0x28, 0x02, 0xf9, 0x06, 0xef, 0x81, 0xed, 0xb1, 0xf4,
  0x95, 0x12, 0x0b, 0xb5, 0xe9, 0x03, 0xe8, 0x1f, 0xc1, 0x09, 0xc6, 0xca,
  0xec, 0x06, 0x96, 0xb7, 0xff, 0x04, 0xf6, 0x25, 0xf3, 0xf6, 0x9c, 0xac,
  0x09, 0xe9, 0xeb, 0xf0, 0xdc, 0x27, 0xc1, 0xce, 0x01, 0xb6, 0xf5, 0x81,
  0xe4, 0xf4, 0x18, 0x00, 0xed, 0x0b, 0x81, 0xcd, 0xb3, 0xd3, 0xe0, 0x0c,
  0xa7, 0x0b, 0xc2, 0xea, 0x00, 0x8f, 0xf0, 0x09, 0xf8, 0x0d, 0xe5, 0x40,
  0x17, 0xfb, 0x26, 0xf8, 0x1e, 0x01, 0xdf, 0xb5, 0xef, 0xf9, 0xef, 0x04,
  0x0a, 0xf5, 0xe0, 0x81, 0xe0, 0xf2, 0xe5, 0x0b, 0x10, 0x0f, 0xe5, 0x98,
  0xec, 0xc5, 0xb8, 0x0f, 0xc0, 0xc3, 0xd8, 0xe0, 0xe7, 0xab, 0xe8, 0xc2,
  0xc3, 0xaf, 0xed, 0xd7, 0xaf, 0x8d, 0x06, 0x9f, 0x81, 0xb6, 0xe9, 0xd1,
  0x26, 0xfb, 0xff, 0xff, 0x04, 0x00, 0x00, 0x00, 0x40, 0x00, 0x00, 0x00,
  0xf6, 0xfe, 0xff, 0xff, 0xd3, 0xf4, 0xff, 0xff, 0x59, 0xff, 0xff, 0xff,
  0xf0, 0xff, 0xff, 0xff, 0x23, 0xfd, 0xff, 0xff, 0x13, 0x01, 0x00, 0x00,
  0x7c, 0xff, 0xff, 0xff, 0x50, 0xfc, 0xff, 0xff, 0xa2, 0xfd, 0xff, 0xff,
  0x89, 0xf9, 0xff, 0xff, 0xc1, 0x01, 0x00, 0x00, 0x91, 0x05, 0x00, 0x00,
  0x56, 0x01, 0x00, 0x00, 0xee, 0xfa, 0xff, 0xff, 0x06, 0xfe, 0xff, 0xff,
  0x53, 0xf8, 0xff, 0xff, 0x72, 0xfb, 0xff, 0xff, 0x04, 0x00, 0x00, 0x00,
  0x40, 0x03, 0x00, 0x00, 0x3d, 0xfe, 0xc2, 0xd7, 0x02, 0xd4, 0x0b, 0x13,
  0x2f, 0xd7, 0x1f, 0x0f, 0xdc, 0xa9, 0x0e, 0x11, 0x2a, 0xf5, 0xa3, 0xec,
  0x0a, 0xe7, 0xfc, 0x07, 0x10, 0xe8, 0x23, 0xe7, 0xda, 0xdc, 0x12, 0x09,
  0x32, 0x08, 0xc2, 0xe5, 0x0b, 0xdd, 0xf1, 0x23, 0xf1, 0x01, 0xf6, 0xfc,
  0xf4, 0xe3, 0x11, 0xdd, 0x3c, 0x0f, 0xd7, 0xfa, 0xe9, 0xf4, 0xf2, 0x16,
  0xf6, 0xfb, 0xfb, 0xe0, 0xee, 0xe3, 0x1b, 0xf1, 0x2d, 0x0b, 0xd5, 0xf2,
  0xf5, 0xf9, 0xed, 0x28, 0xbf, 0x0d, 0x07, 0x08, 0xeb, 0xdc, 0x2a, 0xfa,
  0x21, 0x07, 0xc7, 0x00, 0xf0, 0xec, 0xf3, 0x23, 0xe1, 0x02, 0xf5, 0x07,
  0xe1, 0xd9, 0x21, 0xef, 0x2c, 0xfd, 0xd2, 0xf3, 0xf6, 0xfe, 0xdc, 0x1e,
  0xe5, 0xfb, 0xfc, 0xff, 0xec, 0xe6, 0x30, 0xfb, 0x3a, 0xe4, 0xc2, 0xee,
  0x03, 0xfb, 0xf2, 0x2a, 0xf2, 0xf6, 0x06, 0xfd, 0x05, 0xe5, 0x1c, 0x0b,
  0x29, 0xfe, 0xca, 0xed, 0x06, 0xe9, 0xf8, 0x26, 0xdb, 0x09, 0xff, 0xf3,
  0xfa, 0xe3, 0x1e, 0xf8, 0x46, 0xe5, 0xea, 0x0b, 0x00, 0x08, 0xff, 0x2b,
  0xe9, 0x00, 0x08, 0x07, 0xfc, 0xd7, 0x23, 0x2f, 0x19, 0xe6, 0xf4, 0xee,
  0x0a, 0xe3, 0xed, 0x26, 0xd4, 0x0a, 0xf5, 0xef, 0xf3, 0xdc, 0x38, 0xc3,
  0x13, 0xf9, 0xd7, 0xef, 0x1a, 0xe6, 0xe5, 0x22, 0xfc, 0xf1, 0x01, 0xf7,
  0xf6, 0xf0, 0xfe, 0xd3, 0xf9, 0xef, 0xff, 0xf1, 0x94, 0xf0, 0xc2, 0xce,
  0x09, 0xf0, 0x05, 0x06, 0xea, 0xf8, 0xfb, 0x26, 0xee, 0x04, 0x26, 0x18,
  0xdf, 0x19, 0xed, 0xe9, 0xe3, 0xfc, 0xe6, 0xdd, 0xee, 0xfc, 0xf9, 0xf8,
  0x1b, 0xc1, 0x0c, 0x35, 0xf9, 0x1f, 0xec, 0xe0, 0x11, 0xce, 0xe3, 0x0d,
  0xe1, 0x0b, 0xe7, 0xe1, 0xf5, 0xd3, 0x1d, 0x1a, 0x22, 0x27, 0xb9, 0xd4,
  0xd3, 0xdc, 0xcc, 0x02, 0xf8, 0x0d, 0xea, 0xfb, 0xec, 0xdd, 0x1e, 0x19,
  0x47, 0x1d, 0xa6, 0xd6, 0xe1, 0xe6, 0xcb, 0xbf, 0x04, 0x17, 0xdd, 0x28,
  0xf4, 0xdb, 0x1b, 0x20, 0x24, 0x1b, 0x9d, 0xed, 0xbb, 0xdf, 0xbf, 0xae,
  0x21, 0x00, 0xef, 0xcd, 0xeb, 0xd8, 0xfc, 0x30, 0x37, 0x0f, 0x9b, 0xed,
  0xd9, 0xf1, 0xbe, 0xa2, 0x2b, 0xf6, 0xf7, 0xe1, 0x16, 0xd0, 0x0c, 0x14,
  0x3f, 0x02, 0xb6, 0xd3, 0xb3, 0x13, 0xb2, 0x8d, 0x36, 0xf3, 0xf4, 0xf5,
  0x09, 0xe5, 0xff, 0x1f, 0x39, 0xf0, 0xb9, 0xe8, 0xcc, 0xec, 0xc9, 0xaa,
  0x58, 0xef, 0xf0, 0xee, 0xf3, 0xd9, 0x0e, 0x0c, 0x30, 0x09, 0xbe, 0xe4,
  0xc4, 0xe1, 0xa1, 0xbe, 0x38, 0xe9, 0xfc, 0x0a, 0x05, 0xe9, 0xff, 0x1f,
  0x36, 0x23, 0xb7, 0xf3, 0xa9, 0xd7, 0x81, 0xb6, 0x25, 0xf3, 0x00, 0xf1,
  0x1d, 0xe5, 0x0c, 0x18, 0x25, 0x24, 0xbf, 0xdc, 0xb0, 0xcd, 0xc2, 0xa0,
  0x39, 0xdf, 0xf2, 0x0c, 0x28, 0xe7, 0x07, 0x11, 0x3b, 0x1e, 0xad, 0xe1,
  0xba, 0xd1, 0xcd, 0xdf, 0x3a, 0x06, 0xef, 0x14, 0x0a, 0xc5, 0x16, 0xe3,
  0x21, 0x1c, 0xec, 0x1b, 0xe8, 0xf5, 0xa3, 0xea, 0x1b, 0x25, 0xf7, 0xed,
  0xf0, 0xe1, 0x20, 0x11, 0x0c, 0xfb, 0xf7, 0x03, 0x18, 0xe0, 0xda, 0x19,
  0x16, 0xe6, 0x0d, 0x00, 0xd6, 0xd4, 0x1d, 0x32, 0x07, 0x01, 0x02, 0x05,
  0x25, 0xd0, 0xd2, 0xfc, 0xfd, 0x01, 0xe9, 0xf1, 0xfc, 0xd7, 0x1e, 0x11,
  0xe4, 0xea, 0x1a, 0x00, 0xfd, 0xc2, 0xe2, 0xfa, 0x0f, 0xf4, 0xe4, 0x07,
  0x03, 0xc0, 0x24, 0x28, 0xe4, 0x01, 0x19, 0x09, 0x13, 0xd2, 0x15, 0x09,
  0xe3, 0xd7, 0xf0, 0x03, 0xe5, 0xba, 0x25, 0x24, 0xd2, 0x08, 0x2f, 0xf1,
  0x11, 0xd5, 0x1c, 0x04, 0xea, 0xe1, 0xde, 0x0c, 0xe1, 0xbc, 0x1d, 0x2f,
  0xe3, 0xfc, 0x2d, 0x0a, 0x1e, 0xe0, 0x10, 0x19, 0xe3, 0xcc, 0xd8, 0xcc,
  0xd9, 0xc3, 0x20, 0x25, 0xcf, 0xfc, 0x17, 0xfe, 0x07, 0xd9, 0x12, 0x1b,
  0xe2, 0xd8, 0xf2, 0x06, 0xf1, 0xc6, 0x0b, 0x19, 0xe9, 0xf3, 0x22, 0xec,
  0x1f, 0xd1, 0x18, 0x28, 0xd2, 0xe1, 0xed, 0xe5, 0xfc, 0xe4, 0x13, 0x20,
  0xdf, 0x01, 0x25, 0xf2, 0x23, 0xe7, 0x16, 0x18, 0xcb, 0xdb, 0xf3, 0x19,
  0xd9, 0xcd, 0x12, 0x1a, 0xd9, 0x13, 0x24, 0xec, 0x23, 0xe5, 0x23, 0x0c,
  0xd7, 0xe2, 0xf8, 0xd2, 0xcc, 0xfd, 0x19, 0x18, 0xd6, 0x02, 0x29, 0x0b,
  0x08, 0xfb, 0x19, 0x1e, 0xf0, 0xf5, 0x04, 0x06, 0xf6, 0x08, 0x0b, 0x02,
  0xd1, 0x1b, 0x30, 0x0b, 0x12, 0x0f, 0x11, 0x1f, 0x0a, 0x0a, 0xf7, 0x16,
  0x0a, 0x10, 0x09, 0xf1, 0xf5, 0x07, 0x25, 0x2b, 0x0f, 0x0e, 0xef, 0xff,
  0xe3, 0x02, 0xfc, 0xd8, 0xea, 0x24, 0xcb, 0xc1, 0x14, 0xd5, 0x1b, 0xff,
  0xd0, 0x25, 0x1e, 0x13, 0x0a, 0x4d, 0x15, 0x1a, 0x00, 0x3c, 0xdb, 0xd5,
  0x03, 0xde, 0x20, 0xfb, 0xb3, 0x33, 0x1c, 0x10, 0x0a, 0x40, 0x03, 0xfd,
  0xe4, 0x42, 0xed, 0xcd, 0xfb, 0xdd, 0x17, 0xf9, 0x20, 0x39, 0x2c, 0x25,
  0xfb, 0x33, 0x0d, 0x02, 0xf6, 0x54, 0xf7, 0xd1, 0xfb, 0xdf, 0x0b, 0xf5,
  0x1e, 0x42, 0x1c, 0x24, 0xfc, 0x31, 0x14, 0xe6, 0xf8, 0x3c, 0xf6, 0xd2,
  0xf7, 0xf9, 0x24, 0xec, 0x24, 0x3a, 0x28, 0x0d, 0xea, 0x38, 0x16, 0xe2,
  0xf2, 0x4c, 0xed, 0xc4, 0xdd, 0x00, 0x0d, 0xe9, 0x2c, 0x46, 0x1c, 0x05,
  0xd5, 0x2d, 0x11, 0xfb, 0xf0, 0x34, 0x00, 0xc3, 0xd3, 0xf7, 0x12, 0xfc,
  0x2f, 0x44, 0x14, 0x05, 0xe4, 0x36, 0x22, 0x1b, 0xe7, 0x35, 0xf8, 0xd9,
  0xd5, 0x01, 0x18, 0xf9, 0x2a, 0x3d, 0x22, 0x08, 0xe1, 0x1b, 0x08, 0xe8,
  0xf8, 0x42, 0x09, 0xd1, 0xde, 0x07, 0x28, 0xed, 0x30, 0x3c, 0x1b, 0x11,
  0xe8, 0x28, 0xff, 0xfa, 0x12, 0x2b, 0x06, 0xf4, 0xda, 0x17, 0x1c, 0x01,
  0x29, 0x32, 0x28, 0x01, 0xe6, 0x02, 0xff, 0xc7, 0xd9, 0x20, 0x00, 0xe4,
  0xf2, 0x01, 0x18, 0xfd, 0x31, 0x2d, 0x26, 0x0e, 0xe5, 0x0f, 0x16, 0x1a,
  0x15, 0x20, 0xed, 0xd9, 0xd6, 0xfc, 0x06, 0xf0, 0x2b, 0x2f, 0x09, 0xfb,
  0x0b, 0x34, 0xed, 0xf1, 0xe8, 0x1b, 0xfe, 0x04, 0xf6, 0xf6, 0x1a, 0x06,
  0x0d, 0xf6, 0x1c, 0xf7, 0xe4, 0xe5, 0x03, 0xe8, 0xbe, 0xfe, 0xff, 0xff,
  0x04, 0x00, 0x00, 0x00, 0x10, 0x00, 0x00, 0x00, 0x11, 0x13, 0x00, 0x00,
  0xa0, 0x07, 0x00, 0x00, 0x7f, 0xf8, 0xff, 0xff, 0xc9, 0xeb, 0xff, 0xff,
  0xda, 0xfe, 0xff, 0xff, 0x04, 0x00, 0x00, 0x00, 0x08, 0x00, 0x00, 0x00,
  0xff, 0xff, 0xff, 0xff, 0xd0, 0x00, 0x00, 0x00, 0xee, 0xfe, 0xff, 0xff,
  0x04, 0x00, 0x00, 0x00, 0x10, 0x00, 0x00, 0x00, 0x01, 0x00, 0x00, 0x00,
  0x19, 0x00, 0x00, 0x00, 0x01, 0x00, 0x00, 0x00, 0x10, 0x00, 0x00, 0x00,
  0x0a, 0xff, 0xff, 0xff, 0x04, 0x00, 0x00, 0x00, 0x10, 0x00, 0x00, 0x00,
  0x01, 0x00, 0x00, 0x00, 0x01, 0x00, 0x00, 0x00, 0x19, 0x00, 0x00, 0x00,
  0x08, 0x00, 0x00, 0x00, 0x26, 0xff, 0xff, 0xff, 0x04, 0x00, 0x00, 0x00,
  0x10, 0x00, 0x00, 0x00, 0x01, 0x00, 0x00, 0x00, 0x32, 0x00, 0x00, 0x00,
  0x01, 0x00, 0x00, 0x00, 0x08, 0x00, 0x00, 0x00, 0x42, 0xff, 0xff, 0xff,
  0x04, 0x00, 0x00, 0x00, 0x10, 0x00, 0x00, 0x00, 0x01, 0x00, 0x00, 0x00,
  0x01, 0x00, 0x00, 0x00, 0x32, 0x00, 0x00, 0x00, 0x0d, 0x00, 0x00, 0x00,
  0x74, 0xf1, 0xff, 0xff, 0x78, 0xf1, 0xff, 0xff, 0x0f, 0x00, 0x00, 0x00,
  0x4d, 0x4c, 0x49, 0x52, 0x20, 0x43, 0x6f, 0x6e, 0x76, 0x65, 0x72, 0x74,
  0x65, 0x64, 0x2e, 0x00, 0x01, 0x00, 0x00, 0x00, 0x14, 0x00, 0x00, 0x00,
  0x00, 0x00, 0x0e, 0x00, 0x18, 0x00, 0x14, 0x00, 0x10, 0x00, 0x0c, 0x00,
  0x08, 0x00, 0x04, 0x00, 0x0e, 0x00, 0x00, 0x00, 0x14, 0x00, 0x00, 0x00,
  0x1c, 0x00, 0x00, 0x00, 0x84, 0x02, 0x00, 0x00, 0x88, 0x02, 0x00, 0x00,
  0x8c, 0x02, 0x00, 0x00, 0x04, 0x00, 0x00, 0x00, 0x6d, 0x61, 0x69, 0x6e,
  0x00, 0x00, 0x00, 0x00, 0x0b, 0x00, 0x00, 0x00, 0x48, 0x02, 0x00, 0x00,
  0xec, 0x01, 0x00, 0x00, 0xb8, 0x01, 0x00, 0x00, 0x68, 0x01, 0x00, 0x00,
  0x44, 0x01, 0x00, 0x00, 0x00, 0x01, 0x00, 0x00, 0xdc, 0x00, 0x00, 0x00,
  0x9c, 0x00, 0x00, 0x00, 0x78, 0x00, 0x00, 0x00, 0x40, 0x00, 0x00, 0x00,
  0x04, 0x00, 0x00, 0x00, 0x4a, 0xfe, 0xff, 0xff, 0x1c, 0x00, 0x00, 0x00,
  0x00, 0x00, 0x00, 0x09, 0x1c, 0x00, 0x00, 0x00, 0x20, 0x00, 0x00, 0x00,
  0x04, 0x00, 0x00, 0x00, 0x00, 0x00, 0x06, 0x00, 0x08, 0x00, 0x04, 0x00,
  0x06, 0x00, 0x00, 0x00, 0x00, 0x00, 0x80, 0x3f, 0x01, 0x00, 0x00, 0x00,
  0x16, 0x00, 0x00, 0x00, 0x01, 0x00, 0x00, 0x00, 0x15, 0x00, 0x00, 0x00,
  0x82, 0xfe, 0xff, 0xff, 0x14, 0x00, 0x00, 0x00, 0x00, 0x00, 0x00, 0x08,
  0x10, 0x00, 0x00, 0x00, 0x14, 0x00, 0x00, 0x00, 0x03, 0x00, 0x00, 0x00,
  0x4c, 0xf2, 0xff, 0xff, 0x01, 0x00, 0x00, 0x00, 0x15, 0x00, 0x00, 0x00,
  0x03, 0x00, 0x00, 0x00, 0x14, 0x00, 0x00, 0x00, 0x07, 0x00, 0x00, 0x00,
  0x06, 0x00, 0x00, 0x00, 0x5a, 0xfe, 0xff, 0xff, 0x08, 0x00, 0x00, 0x00,
  0x0c, 0x00, 0x00, 0x00, 0x01, 0x00, 0x00, 0x00, 0x14, 0x00, 0x00, 0x00,
  0x02, 0x00, 0x00, 0x00, 0x13, 0x00, 0x00, 0x00, 0x05, 0x00, 0x00, 0x00,
  0xd6, 0xfe, 0xff, 0xff, 0x14, 0x00, 0x00, 0x00, 0x00, 0x00, 0x00, 0x05,
  0x20, 0x00, 0x00, 0x00, 0x24, 0x00, 0x00, 0x00, 0x02, 0x00, 0x00, 0x00,
  0x42, 0xff, 0xff, 0xff, 0x02, 0x00, 0x00, 0x00, 0x01, 0x00, 0x00, 0x00,
  0x02, 0x00, 0x00, 0x00, 0x01, 0x00, 0x00, 0x00, 0x01, 0x00, 0x00, 0x00,
  0x13, 0x00, 0x00, 0x00, 0x01, 0x00, 0x00, 0x00, 0x12, 0x00, 0x00, 0x00,
  0xb6, 0xfe, 0xff, 0xff, 0x08, 0x00, 0x00, 0x00, 0x0c, 0x00, 0x00, 0x00,
  0x01, 0x00, 0x00, 0x00, 0x12, 0x00, 0x00, 0x00, 0x02, 0x00, 0x00, 0x00,
  0x11, 0x00, 0x00, 0x00, 0x04, 0x00, 0x00, 0x00, 0x32, 0xff, 0xff, 0xff,
  0x14, 0x00, 0x00, 0x00, 0x00, 0x00, 0x00, 0x01, 0x1c, 0x00, 0x00, 0x00,
  0x20, 0x00, 0x00, 0x00, 0x01, 0x00, 0x00, 0x00, 0x24, 0xff, 0xff, 0xff,
  0x00, 0x00, 0x00, 0x01, 0x01, 0x00, 0x00, 0x00, 0x01, 0x00, 0x00, 0x00,
  0x01, 0x00, 0x00, 0x00, 0x11, 0x00, 0x00, 0x00, 0x03, 0x00, 0x00, 0x00,
  0x10, 0x00, 0x00, 0x00, 0x09, 0x00, 0x00, 0x00, 0x08, 0x00, 0x00, 0x00,
  0x16, 0xff, 0xff, 0xff, 0x08, 0x00, 0x00, 0x00, 0x0c, 0x00, 0x00, 0x00,
  0x01, 0x00, 0x00, 0x00, 0x10, 0x00, 0x00, 0x00, 0x02, 0x00, 0x00, 0x00,
  0x0f, 0x00, 0x00, 0x00, 0x03, 0x00, 0x00, 0x00, 0x92, 0xff, 0xff, 0xff,
  0x24, 0x00, 0x00, 0x00, 0x00, 0x00, 0x00, 0x05, 0x30, 0x00, 0x00, 0x00,
  0x34, 0x00, 0x00, 0x00, 0x02, 0x00, 0x00, 0x00, 0x00, 0x00, 0x0e, 0x00,
  0x14, 0x00, 0x00, 0x00, 0x10, 0x00, 0x0c, 0x00, 0x08, 0x00, 0x04, 0x00,
  0x0e, 0x00, 0x00, 0x00, 0x02, 0x00, 0x00, 0x00, 0x01, 0x00, 0x00, 0x00,
  0x02, 0x00, 0x00, 0x00, 0x01, 0x00, 0x00, 0x00, 0x01, 0x00, 0x00, 0x00,
  0x0f, 0x00, 0x00, 0x00, 0x01, 0x00, 0x00, 0x00, 0x0e, 0x00, 0x00, 0x00,
  0x82, 0xff, 0xff, 0xff, 0x08, 0x00, 0x00, 0x00, 0x0c, 0x00, 0x00, 0x00,
  0x01, 0x00, 0x00, 0x00, 0x0e, 0x00, 0x00, 0x00, 0x02, 0x00, 0x00, 0x00,
  0x0d, 0x00, 0x00, 0x00, 0x02, 0x00, 0x00, 0x00, 0x00, 0x00, 0x0e, 0x00,
  0x18, 0x00, 0x14, 0x00, 0x10, 0x00, 0x0c, 0x00, 0x0b, 0x00, 0x04, 0x00,
  0x0e, 0x00, 0x00, 0x00, 0x20, 0x00, 0x00, 0x00, 0x00, 0x00, 0x00, 0x01,
  0x28, 0x00, 0x00, 0x00, 0x2c, 0x00, 0x00, 0x00, 0x01, 0x00, 0x00, 0x00,
  0x0c, 0x00, 0x10, 0x00, 0x00, 0x00, 0x0c, 0x00, 0x08, 0x00, 0x07, 0x00,
  0x0c, 0x00, 0x00, 0x00, 0x00, 0x00, 0x00, 0x01, 0x01, 0x00, 0x00, 0x00,
  0x01, 0x00, 0x00, 0x00, 0x01, 0x00, 0x00, 0x00, 0x0d, 0x00, 0x00, 0x00,
  0x03, 0x00, 0x00, 0x00, 0x0c, 0x00, 0x00, 0x00, 0x0b, 0x00, 0x00, 0x00,
  0x0a, 0x00, 0x00, 0x00, 0x00, 0x00, 0x0a, 0x00, 0x0c, 0x00, 0x00, 0x00,
  0x08, 0x00, 0x04, 0x00, 0x0a, 0x00, 0x00, 0x00, 0x08, 0x00, 0x00, 0x00,
  0x0c, 0x00, 0x00, 0x00, 0x01, 0x00, 0x00, 0x00, 0x0c, 0x00, 0x00, 0x00,
  0x02, 0x00, 0x00, 0x00, 0x00, 0x00, 0x00, 0x00, 0x01, 0x00, 0x00, 0x00,
  0x01, 0x00, 0x00, 0x00, 0x16, 0x00, 0x00, 0x00, 0x01, 0x00, 0x00, 0x00,
  0x00, 0x00, 0x00, 0x00, 0x17, 0x00, 0x00, 0x00, 0xf0, 0x0b, 0x00, 0x00,
  0x94, 0x0b, 0x00, 0x00, 0x54, 0x0b, 0x00, 0x00, 0x14, 0x0b, 0x00, 0x00,
  0xd4, 0x0a, 0x00, 0x00, 0x94, 0x0a, 0x00, 0x00, 0x34, 0x0a, 0x00, 0x00,
  0xd0, 0x09, 0x00, 0x00, 0xbc, 0x08, 0x00, 0x00, 0x98, 0x07, 0x00, 0x00,
  0xe4, 0x06, 0x00, 0x00, 0x20, 0x06, 0x00, 0x00, 0x9c, 0x05, 0x00, 0x00,
  0xd8, 0x04, 0x00, 0x00, 0x5c, 0x04, 0x00, 0x00, 0xe0, 0x03, 0x00, 0x00,
  0x5c, 0x03, 0x00, 0x00, 0x60, 0x02, 0x00, 0x00, 0xdc, 0x01, 0x00, 0x00,
  0x60, 0x01, 0x00, 0x00, 0xf4, 0x00, 0x00, 0x00, 0x70, 0x00, 0x00, 0x00,
  0x04, 0x00, 0x00, 0x00, 0x82, 0xf4, 0xff, 0xff, 0x00, 0x00, 0x00, 0x01,
  0x14, 0x00, 0x00, 0x00, 0x30, 0x00, 0x00, 0x00, 0x17, 0x00, 0x00, 0x00,
  0x00, 0x00, 0x00, 0x09, 0x44, 0x00, 0x00, 0x00, 0x6c, 0xf4, 0xff, 0xff,
  0x08, 0x00, 0x00, 0x00, 0x10, 0x00, 0x00, 0x00, 0x01, 0x00, 0x00, 0x00,
  0x80, 0xff, 0xff, 0xff, 0xff, 0xff, 0xff, 0xff, 0x01, 0x00, 0x00, 0x00,
  0x00, 0x00, 0x80, 0x3b, 0x19, 0x00, 0x00, 0x00, 0x53, 0x74, 0x61, 0x74,
  0x65, 0x66, 0x75, 0x6c, 0x50, 0x61, 0x72, 0x74, 0x69, 0x74, 0x69, 0x6f,
  0x6e, 0x65, 0x64, 0x43, 0x61, 0x6c, 0x6c, 0x3a, 0x30, 0x00, 0x00, 0x00,
  0x02, 0x00, 0x00, 0x00, 0x01, 0x00, 0x00, 0x00, 0x04, 0x00, 0x00, 0x00,
  0xea, 0xf4, 0xff, 0xff, 0x00, 0x00, 0x00, 0x01, 0x14, 0x00, 0x00, 0x00,
  0x30, 0x00, 0x00, 0x00, 0x16, 0x00, 0x00, 0x00, 0x00, 0x00, 0x00, 0x09,
  0x5c, 0x00, 0x00, 0x00, 0xd4, 0xf4, 0xff, 0xff, 0x08, 0x00, 0x00, 0x00,
  0x10, 0x00, 0x00, 0x00, 0x01, 0x00, 0x00, 0x00, 0x04, 0x00, 0x00, 0x00,
  0x00, 0x00, 0x00, 0x00, 0x01, 0x00, 0x00, 0x00, 0x42, 0xdf, 0xb3, 0x3d,
  0x32, 0x00, 0x00, 0x00, 0x73, 0x65, 0x71, 0x75, 0x65, 0x6e, 0x74, 0x69,
  0x61, 0x6c, 0x2f, 0x79, 0x5f, 0x70, 0x72, 0x65, 0x64, 0x2f, 0x4d, 0x61,
  0x74, 0x4d, 0x75, 0x6c, 0x3b, 0x73, 0x65, 0x71, 0x75, 0x65, 0x6e, 0x74,
  0x69, 0x61, 0x6c, 0x2f, 0x79, 0x5f, 0x70, 0x72, 0x65, 0x64, 0x2f, 0x42,
  0x69, 0x61, 0x73, 0x41, 0x64, 0x64, 0x00, 0x00, 0x02, 0x00, 0x00, 0x00,
  0x01, 0x00, 0x00, 0x00, 0x04, 0x00, 0x00, 0x00, 0x6a, 0xf5, 0xff, 0xff,
  0x00, 0x00, 0x00, 0x01, 0x14, 0x00, 0x00, 0x00, 0x30, 0x00, 0x00, 0x00,
  0x15, 0x00, 0x00, 0x00, 0x00, 0x00, 0x00, 0x09, 0x44, 0x00, 0x00, 0x00,
  0x54, 0xf5, 0xff, 0xff, 0x08, 0x00, 0x00, 0x00, 0x10, 0x00, 0x00, 0x00,
  0x01, 0x00, 0x00, 0x00, 0x80, 0xff, 0xff, 0xff, 0xff, 0xff, 0xff, 0xff,
  0x01, 0x00, 0x00, 0x00, 0xb9, 0xec, 0x01, 0x3d, 0x1a, 0x00, 0x00, 0x00,
  0x73, 0x65, 0x71, 0x75, 0x65, 0x6e, 0x74, 0x69, 0x61, 0x6c, 0x2f, 0x66,
  0x6c, 0x61, 0x74, 0x74, 0x65, 0x6e, 0x2f, 0x52, 0x65, 0x73, 0x68, 0x61,
  0x70, 0x65, 0x00, 0x00, 0x02, 0x00, 0x00, 0x00, 0x01, 0x00, 0x00, 0x00,
  0xd0, 0x00, 0x00, 0x00, 0xd2, 0xf5, 0xff, 0xff, 0x00, 0x00, 0x00, 0x01,
  0x14, 0x00, 0x00, 0x00, 0x30, 0x00, 0x00, 0x00, 0x14, 0x00, 0x00, 0x00,
  0x00, 0x00, 0x00, 0x09, 0x4c, 0x00, 0x00, 0x00, 0xbc, 0xf5, 0xff, 0xff,
  0x08, 0x00, 0x00, 0x00, 0x10, 0x00, 0x00, 0x00, 0x01, 0x00, 0x00, 0x00,
  0x80, 0xff, 0xff, 0xff, 0xff, 0xff, 0xff, 0xff, 0x01, 0x00, 0x00, 0x00,
  0xb9, 0xec, 0x01, 0x3d, 0x22, 0x00, 0x00, 0x00, 0x73, 0x65, 0x71, 0x75,
  0x65, 0x6e, 0x74, 0x69, 0x61, 0x6c, 0x2f, 0x6d, 0x61, 0x78, 0x5f, 0x70,
  0x6f, 0x6f, 0x6c, 0x69, 0x6e, 0x67, 0x31, 0x64, 0x5f, 0x31, 0x2f, 0x4d,
  0x61, 0x78, 0x50, 0x6f, 0x6f, 0x6c, 0x00, 0x00, 0x04, 0x00, 0x00, 0x00,
  0x01, 0x00, 0x00, 0x00, 0x0d, 0x00, 0x00, 0x00, 0x01, 0x00, 0x00, 0x00,
  0x10, 0x00, 0x00, 0x00, 0x4a, 0xf6, 0xff, 0xff, 0x00, 0x00, 0x00, 0x01,
  0x14, 0x00, 0x00, 0x00, 0x34, 0x00, 0x00, 0x00, 0x13, 0x00, 0x00, 0x00,
  0x00, 0x00, 0x00, 0x09, 0x54, 0x00, 0x00, 0x00, 0x34, 0xf6, 0xff, 0xff,
  0x08, 0x00, 0x00, 0x00, 0x14, 0x00, 0x00, 0x00, 0x01, 0x00, 0x00, 0x00,
  0x80, 0xff, 0xff, 0xff, 0xff, 0xff, 0xff, 0xff, 0x00, 0x00, 0x00, 0x00,
  0x01, 0x00, 0x00, 0x00, 0xb9, 0xec, 0x01, 0x3d, 0x25, 0x00, 0x00, 0x00,
  0x73, 0x65, 0x71, 0x75, 0x65, 0x6e, 0x74, 0x69, 0x61, 0x6c, 0x2f, 0x6d,
  0x61, 0x78, 0x5f, 0x70, 0x6f, 0x6f, 0x6c, 0x69, 0x6e, 0x67, 0x31, 0x64,
  0x5f, 0x31, 0x2f, 0x45, 0x78, 0x70, 0x61, 0x6e, 0x64, 0x44, 0x69, 0x6d,
  0x73, 0x00, 0x00, 0x00, 0x04, 0x00, 0x00, 0x00, 0x01, 0x00, 0x00, 0x00,
  0x19, 0x00, 0x00, 0x00, 0x01, 0x00, 0x00, 0x00, 0x10, 0x00, 0x00, 0x00,
  0xca, 0xf6, 0xff, 0xff, 0x00, 0x00, 0x00, 0x01, 0x14, 0x00, 0x00, 0x00,
  0x34, 0x00, 0x00, 0x00, 0x12, 0x00, 0x00, 0x00, 0x00, 0x00, 0x00, 0x09,
  0xcc, 0x00, 0x00, 0x00, 0xb4, 0xf6, 0xff, 0xff, 0x08, 0x00, 0x00, 0x00,
  0x14, 0x00, 0x00, 0x00, 0x01, 0x00, 0x00, 0x00, 0x80, 0xff, 0xff, 0xff,
  0xff, 0xff, 0xff, 0xff, 0x00, 0x00, 0x00, 0x00, 0x01, 0x00, 0x00, 0x00,
  0xb9, 0xec, 0x01, 0x3d, 0x9d, 0x00, 0x00, 0x00, 0x73, 0x65, 0x71, 0x75,
  0x65, 0x6e, 0x74, 0x69, 0x61, 0x6c, 0x2f, 0x63, 0x6f, 0x6e, 0x76, 0x31,
  0x64, 0x5f, 0x31, 0x2f, 0x52, 0x65, 0x6c, 0x75, 0x3b, 0x73, 0x65, 0x71,
  0x75, 0x65, 0x6e, 0x74, 0x69, 0x61, 0x6c, 0x2f, 0x63, 0x6f, 0x6e, 0x76,
  0x31, 0x64, 0x5f, 0x31, 0x2f, 0x42, 0x69, 0x61, 0x73, 0x41, 0x64, 0x64,
  0x3b, 0x73, 0x65, 0x71, 0x75, 0x65, 0x6e, 0x74, 0x69, 0x61, 0x6c, 0x2f,
  0x63, 0x6f, 0x6e, 0x76, 0x31, 0x64, 0x5f, 0x31, 0x2f, 0x43, 0x6f, 0x6e,
  0x76, 0x31, 0x44, 0x2f, 0x53, 0x71, 0x75, 0x65, 0x65, 0x7a, 0x65, 0x3b,
  0x73, 0x65, 0x71, 0x75, 0x65, 0x6e, 0x74, 0x69, 0x61, 0x6c, 0x2f, 0x63,
  0x6f, 0x6e, 0x76, 0x31, 0x64, 0x5f, 0x31, 0x2f, 0x42, 0x69, 0x61, 0x73,
  0x41, 0x64, 0x64, 0x2f, 0x52, 0x65, 0x61, 0x64, 0x56, 0x61, 0x72, 0x69,
  0x61, 0x62, 0x6c, 0x65, 0x4f, 0x70, 0x3b, 0x73, 0x65, 0x71, 0x75, 0x65,
  0x6e, 0x74, 0x69, 0x61, 0x6c, 0x2f, 0x63, 0x6f, 0x6e, 0x76, 0x31, 0x64,
  0x5f, 0x31, 0x2f, 0x43, 0x6f, 0x6e, 0x76, 0x31, 0x44, 0x00, 0x00, 0x00,
  0x04, 0x00, 0x00, 0x00, 0x01, 0x00, 0x00, 0x00, 0x01, 0x00, 0x00, 0x00,
  0x19, 0x00, 0x00, 0x00, 0x10, 0x00, 0x00, 0x00, 0xc2, 0xf7, 0xff, 0xff,
  0x00, 0x00, 0x00, 0x01, 0x14, 0x00, 0x00, 0x00, 0x34, 0x00, 0x00, 0x00,
  0x11, 0x00, 0x00, 0x00, 0x00, 0x00, 0x00, 0x09, 0x54, 0x00, 0x00, 0x00,
  0xac, 0xf7, 0xff, 0xff, 0x08, 0x00, 0x00, 0x00, 0x14, 0x00, 0x00, 0x00,
  0x01, 0x00, 0x00, 0x00, 0x80, 0xff, 0xff, 0xff, 0xff, 0xff, 0xff, 0xff,
  0x00, 0x00, 0x00, 0x00, 0x01, 0x00, 0x00, 0x00, 0xf2, 0xd7, 0x4f, 0x3d,
  0x25, 0x00, 0x00, 0x00, 0x73, 0x65, 0x71, 0x75, 0x65, 0x6e, 0x74, 0x69,
  0x61, 0x6c, 0x2f, 0x63, 0x6f, 0x6e, 0x76, 0x31, 0x64, 0x5f, 0x31, 0x2f,
  0x43, 0x6f, 0x6e, 0x76, 0x31, 0x44, 0x2f, 0x45, 0x78, 0x70, 0x61, 0x6e,
  0x64, 0x44, 0x69, 0x6d, 0x73, 0x00, 0x00, 0x00, 0x04, 0x00, 0x00, 0x00,
  0x01, 0x00, 0x00, 0x00, 0x01, 0x00, 0x00, 0x00, 0x19, 0x00, 0x00, 0x00,
  0x08, 0x00, 0x00, 0x00, 0x42, 0xf8, 0xff, 0xff, 0x00, 0x00, 0x00, 0x01,
  0x14, 0x00, 0x00, 0x00, 0x30, 0x00, 0x00, 0x00, 0x10, 0x00, 0x00, 0x00,
  0x00, 0x00, 0x00, 0x09, 0x4c, 0x00, 0x00, 0x00, 0x2c, 0xf8, 0xff, 0xff,
  0x08, 0x00, 0x00, 0x00, 0x10, 0x00, 0x00, 0x00, 0x01, 0x00, 0x00, 0x00,
  0x80, 0xff, 0xff, 0xff, 0xff, 0xff, 0xff, 0xff, 0x01, 0x00, 0x00, 0x00,
  0xf2, 0xd7, 0x4f, 0x3d, 0x20, 0x00, 0x00, 0x00, 0x73, 0x65, 0x71, 0x75,
  0x65, 0x6e, 0x74, 0x69, 0x61, 0x6c, 0x2f, 0x6d, 0x61, 0x78, 0x5f, 0x70,
  0x6f, 0x6f, 0x6c, 0x69, 0x6e, 0x67, 0x31, 0x64, 0x2f, 0x4d, 0x61, 0x78,
  0x50, 0x6f, 0x6f, 0x6c, 0x00, 0x00, 0x00, 0x00, 0x04, 0x00, 0x00, 0x00,
  0x01, 0x00, 0x00, 0x00, 0x19, 0x00, 0x00, 0x00, 0x01, 0x00, 0x00, 0x00,
  0x08, 0x00, 0x00, 0x00, 0xba, 0xf8, 0xff, 0xff, 0x00, 0x00, 0x00, 0x01,
  0x14, 0x00, 0x00, 0x00, 0x30, 0x00, 0x00, 0x00, 0x0f, 0x00, 0x00, 0x00,
  0x00, 0x00, 0x00, 0x09, 0x4c, 0x00, 0x00, 0x00, 0xa4, 0xf8, 0xff, 0xff,
  0x08, 0x00, 0x00, 0x00, 0x10, 0x00, 0x00, 0x00, 0x01, 0x00, 0x00, 0x00,
  0x80, 0xff, 0xff, 0xff, 0xff, 0xff, 0xff, 0xff, 0x01, 0x00, 0x00, 0x00,
  0xf2, 0xd7, 0x4f, 0x3d, 0x23, 0x00, 0x00, 0x00, 0x73, 0x65, 0x71, 0x75,
  0x65, 0x6e, 0x74, 0x69, 0x61, 0x6c, 0x2f, 0x6d, 0x61, 0x78, 0x5f, 0x70,
  0x6f, 0x6f, 0x6c, 0x69, 0x6e, 0x67, 0x31, 0x64, 0x2f, 0x45, 0x78, 0x70,
  0x61, 0x6e, 0x64, 0x44, 0x69, 0x6d, 0x73, 0x00, 0x04, 0x00, 0x00, 0x00,
  0x01, 0x00, 0x00, 0x00, 0x32, 0x00, 0x00, 0x00, 0x01, 0x00, 0x00, 0x00,
  0x08, 0x00, 0x00, 0x00, 0x32, 0xf9, 0xff, 0xff, 0x00, 0x00, 0x00, 0x01,
  0x14, 0x00, 0x00, 0x00, 0x30, 0x00, 0x00, 0x00, 0x0e, 0x00, 0x00, 0x00,
  0x00, 0x00, 0x00, 0x09, 0x94, 0x00, 0x00, 0x00, 0x1c, 0xf9, 0xff, 0xff,
  0x08, 0x00, 0x00, 0x00, 0x10, 0x00, 0x00, 0x00, 0x01, 0x00, 0x00, 0x00,
  0x80, 0xff, 0xff, 0xff, 0xff, 0xff, 0xff, 0xff, 0x01, 0x00, 0x00, 0x00,
  0xf2, 0xd7, 0x4f, 0x3d, 0x6b, 0x00, 0x00, 0x00, 0x73, 0x65, 0x71, 0x75,
  0x65, 0x6e, 0x74, 0x69, 0x61, 0x6c, 0x2f, 0x63, 0x6f, 0x6e, 0x76, 0x31,
  0x64, 0x2f, 0x52, 0x65, 0x6c, 0x75, 0x3b, 0x73, 0x65, 0x71, 0x75, 0x65,
  0x6e, 0x74, 0x69, 0x61, 0x6c, 0x2f, 0x63, 0x6f, 0x6e, 0x76, 0x31, 0x64,
  0x2f, 0x42, 0x69, 0x61, 0x73, 0x41, 0x64, 0x64, 0x3b, 0x73, 0x65, 0x71,
  0x75, 0x65, 0x6e, 0x74, 0x69, 0x61, 0x6c, 0x2f, 0x63, 0x6f, 0x6e, 0x76,
  0x31, 0x64, 0x2f, 0x43, 0x6f, 0x6e, 0x76, 0x31, 0x44, 0x2f, 0x53, 0x71,
  0x75, 0x65, 0x65, 0x7a, 0x65, 0x3b, 0x3b, 0x73, 0x65, 0x71, 0x75, 0x65,
  0x6e, 0x74, 0x69, 0x61, 0x6c, 0x2f, 0x63, 0x6f, 0x6e, 0x76, 0x31, 0x64,
  0x2f, 0x43, 0x6f, 0x6e, 0x76, 0x31, 0x44, 0x00, 0x04, 0x00, 0x00, 0x00,
  0x01, 0x00, 0x00, 0x00, 0x01, 0x00, 0x00, 0x00, 0x32, 0x00, 0x00, 0x00,
  0x08, 0x00, 0x00, 0x00, 0xf2, 0xf9, 0xff, 0xff, 0x00, 0x00, 0x00, 0x01,
  0x14, 0x00, 0x00, 0x00, 0x34, 0x00, 0x00, 0x00, 0x0d, 0x00, 0x00, 0x00,
  0x00, 0x00, 0x00, 0x09, 0x54, 0x00, 0x00, 0x00, 0xdc, 0xf9, 0xff, 0xff,
  0x08, 0x00, 0x00, 0x00, 0x14, 0x00, 0x00, 0x00, 0x01, 0x00, 0x00, 0x00,
  0x08, 0x00, 0x00, 0x00, 0x00, 0x00, 0x00, 0x00, 0x00, 0x00, 0x00, 0x00,
  0x01, 0x00, 0x00, 0x00, 0xa0, 0x65, 0x52, 0x3d, 0x24, 0x00, 0x00, 0x00,
  0x73, 0x65, 0x71, 0x75, 0x65, 0x6e, 0x74, 0x69, 0x61, 0x6c, 0x2f, 0x63,
  0x6f, 0x6e, 0x76, 0x31, 0x64, 0x2f, 0x43, 0x6f, 0x6e, 0x76, 0x31, 0x44,
  0x2f, 0x45, 0x78, 0x70, 0x61, 0x6e, 0x64, 0x44, 0x69, 0x6d, 0x73, 0x31,
  0x00, 0x00, 0x00, 0x00, 0x04, 0x00, 0x00, 0x00, 0x01, 0x00, 0x00, 0x00,
  0x01, 0x00, 0x00, 0x00, 0x32, 0x00, 0x00, 0x00, 0x0d, 0x00, 0x00, 0x00,
  0x72, 0xfa, 0xff, 0xff, 0x00, 0x00, 0x00, 0x01, 0x14, 0x00, 0x00, 0x00,
  0x88, 0x00, 0x00, 0x00, 0x0c, 0x00, 0x00, 0x00, 0x00, 0x00, 0x00, 0x09,
  0x94, 0x00, 0x00, 0x00, 0x5c, 0xfa, 0xff, 0xff, 0x08, 0x00, 0x00, 0x00,
  0x4c, 0x00, 0x00, 0x00, 0x08, 0x00, 0x00, 0x00, 0x00, 0x00, 0x00, 0x00,
  0x00, 0x00, 0x00, 0x00, 0x00, 0x00, 0x00, 0x00, 0x00, 0x00, 0x00, 0x00,
  0x00, 0x00, 0x00, 0x00, 0x00, 0x00, 0x00, 0x00, 0x00, 0x00, 0x00, 0x00,
  0x00, 0x00, 0x00, 0x00, 0x00, 0x00, 0x00, 0x00, 0x00, 0x00, 0x00, 0x00,
  0x00, 0x00, 0x00, 0x00, 0x00, 0x00, 0x00, 0x00, 0x00, 0x00, 0x00, 0x00,
  0x00, 0x00, 0x00, 0x00, 0x00, 0x00, 0x00, 0x00, 0x00, 0x00, 0x00, 0x00,
  0x00, 0x00, 0x00, 0x00, 0x08, 0x00, 0x00, 0x00, 0xea, 0x7d, 0xa1, 0x3b,
  0x04, 0x45, 0xa0, 0x3b, 0x32, 0x82, 0x15, 0x3c, 0x7b, 0x69, 0x93, 0x3b,
  0x73, 0x35, 0x1e, 0x3c, 0xc8, 0x86, 0x89, 0x3b, 0xa0, 0x85, 0xc4, 0x3b,
  0xf4, 0xc7, 0x20, 0x3b, 0x12, 0x00, 0x00, 0x00, 0x74, 0x66, 0x6c, 0x2e,
  0x70, 0x73, 0x65, 0x75, 0x64, 0x6f, 0x5f, 0x71, 0x63, 0x6f, 0x6e, 0x73,
  0x74, 0x35, 0x00, 0x00, 0x04, 0x00, 0x00, 0x00, 0x08, 0x00, 0x00, 0x00,
  0x01, 0x00, 0x00, 0x00, 0x03, 0x00, 0x00, 0x00, 0x0d, 0x00, 0x00, 0x00,
  0x32, 0xfb, 0xff, 0xff, 0x00, 0x00, 0x00, 0x01, 0x14, 0x00, 0x00, 0x00,
  0x84, 0x00, 0x00, 0x00, 0x0b, 0x00, 0x00, 0x00, 0x00, 0x00, 0x00, 0x02,
  0x90, 0x00, 0x00, 0x00, 0x1c, 0xfb, 0xff, 0xff, 0x08, 0x00, 0x00, 0x00,
  0x48, 0x00, 0x00, 0x00, 0x08, 0x00, 0x00, 0x00, 0x00, 0x00, 0x00, 0x00,
  0x00, 0x00, 0x00, 0x00, 0x00, 0x00, 0x00, 0x00, 0x00, 0x00, 0x00, 0x00,
  0x00, 0x00, 0x00, 0x00, 0x00, 0x00, 0x00, 0x00, 0x00, 0x00, 0x00, 0x00,
  0x00, 0x00, 0x00, 0x00, 0x00, 0x00, 0x00, 0x00, 0x00, 0x00, 0x00, 0x00,
  0x00, 0x00, 0x00, 0x00, 0x00, 0x00, 0x00, 0x00, 0x00, 0x00, 0x00, 0x00,
  0x00, 0x00, 0x00, 0x00, 0x00, 0x00, 0x00, 0x00, 0x00, 0x00, 0x00, 0x00,
  0x08, 0x00, 0x00, 0x00, 0x66, 0xb9, 0x84, 0x39, 0x3d, 0xb8, 0x83, 0x39,
  0x4e, 0xc0, 0xf5, 0x39, 0x17, 0x4e, 0x72, 0x39, 0xa6, 0x06, 0x02, 0x3a,
  0x50, 0x0e, 0x62, 0x39, 0xa1, 0x83, 0xa1, 0x39, 0xda, 0x23, 0x04, 0x39,
  0x12, 0x00, 0x00, 0x00, 0x74, 0x66, 0x6c, 0x2e, 0x70, 0x73, 0x65, 0x75,
  0x64, 0x6f, 0x5f, 0x71, 0x63, 0x6f, 0x6e, 0x73, 0x74, 0x34, 0x00, 0x00,
  0x01, 0x00, 0x00, 0x00, 0x08, 0x00, 0x00, 0x00, 0xe2, 0xfb, 0xff, 0xff,
  0x00, 0x00, 0x00, 0x01, 0x14, 0x00, 0x00, 0x00, 0xe8, 0x00, 0x00, 0x00,
  0x0a, 0x00, 0x00, 0x00, 0x00, 0x00, 0x00, 0x09, 0xf4, 0x00, 0x00, 0x00,
  0xcc, 0xfb, 0xff, 0xff, 0x08, 0x00, 0x00, 0x00, 0x8c, 0x00, 0x00, 0x00,
  0x10, 0x00, 0x00, 0x00, 0x00, 0x00, 0x00, 0x00, 0x00, 0x00, 0x00, 0x00,
  0x00, 0x00, 0x00, 0x00, 0x00, 0x00, 0x00, 0x00, 0x00, 0x00, 0x00, 0x00,
  0x00, 0x00, 0x00, 0x00, 0x00, 0x00, 0x00, 0x00, 0x00, 0x00, 0x00, 0x00,
  0x00, 0x00, 0x00, 0x00, 0x00, 0x00, 0x00, 0x00, 0x00, 0x00, 0x00, 0x00,
  0x00, 0x00, 0x00, 0x00, 0x00, 0x00, 0x00, 0x00, 0x00, 0x00, 0x00, 0x00,
  0x00, 0x00, 0x00, 0x00, 0x00, 0x00, 0x00, 0x00, 0x00, 0x00, 0x00, 0x00,
  0x00, 0x00, 0x00, 0x00, 0x00, 0x00, 0x00, 0x00, 0x00, 0x00, 0x00, 0x00,
  0x00, 0x00, 0x00, 0x00, 0x00, 0x00, 0x00, 0x00, 0x00, 0x00, 0x00, 0x00,
  0x00, 0x00, 0x00, 0x00, 0x00, 0x00, 0x00, 0x00, 0x00, 0x00, 0x00, 0x00,
  0x00, 0x00, 0x00, 0x00, 0x00, 0x00, 0x00, 0x00, 0x00, 0x00, 0x00, 0x00,
  0x00, 0x00, 0x00, 0x00, 0x00, 0x00, 0x00, 0x00, 0x00, 0x00, 0x00, 0x00,
  0x00, 0x00, 0x00, 0x00, 0x10, 0x00, 0x00, 0x00, 0xfb, 0x52, 0xbf, 0x3b,
  0x6e, 0xab, 0x21, 0x3c, 0x95, 0xb5, 0x06, 0x3c, 0x43, 0x7d, 0x35, 0x3c,
  0x7b, 0x6e, 0xe5, 0x3b, 0x8a, 0x83, 0x44, 0x3c, 0xd2, 0x1a, 0x02, 0x3c,
  0xf0, 0x54, 0x32, 0x3c, 0x20, 0x90, 0x26, 0x3c, 0x27, 0x7d, 0x45, 0x3c,
  0xdf, 0x7c, 0xeb, 0x3b, 0x29, 0x88, 0xb6, 0x3b, 0xbf, 0x99, 0xf3, 0x3b,
  0x86, 0x86, 0x15, 0x3c, 0x52, 0xb6, 0x15, 0x3c, 0x84, 0xc8, 0xa1, 0x3b,
  0x12, 0x00, 0x00, 0x00, 0x74, 0x66, 0x6c, 0x2e, 0x70, 0x73, 0x65, 0x75,
  0x64, 0x6f, 0x5f, 0x71, 0x63, 0x6f, 0x6e, 0x73, 0x74, 0x33, 0x00, 0x00,
  0x04, 0x00, 0x00, 0x00, 0x10, 0x00, 0x00, 0x00, 0x01, 0x00, 0x00, 0x00,
  0x03, 0x00, 0x00, 0x00, 0x08, 0x00, 0x00, 0x00, 0x02, 0xfd, 0xff, 0xff,
  0x00, 0x00, 0x00, 0x01, 0x14, 0x00, 0x00, 0x00, 0xe4, 0x00, 0x00, 0x00,
  0x09, 0x00, 0x00, 0x00, 0x00, 0x00, 0x00, 0x02, 0xf0, 0x00, 0x00, 0x00,
  0xec, 0xfc, 0xff, 0xff, 0x08, 0x00, 0x00, 0x00, 0x88, 0x00, 0x00, 0x00,
  0x10, 0x00, 0x00, 0x00, 0x00, 0x00, 0x00, 0x00, 0x00, 0x00, 0x00, 0x00,
  0x00, 0x00, 0x00, 0x00, 0x00, 0x00, 0x00, 0x00, 0x00, 0x00, 0x00, 0x00,
  0x00, 0x00, 0x00, 0x00, 0x00, 0x00, 0x00, 0x00, 0x00, 0x00, 0x00, 0x00,
  0x00, 0x00, 0x00, 0x00, 0x00, 0x00, 0x00, 0x00, 0x00, 0x00, 0x00, 0x00,
  0x00, 0x00, 0x00, 0x00, 0x00, 0x00, 0x00, 0x00, 0x00, 0x00, 0x00, 0x00,
  0x00, 0x00, 0x00, 0x00, 0x00, 0x00, 0x00, 0x00, 0x00, 0x00, 0x00, 0x00,
  0x00, 0x00, 0x00, 0x00, 0x00, 0x00, 0x00, 0x00, 0x00, 0x00, 0x00, 0x00,
  0x00, 0x00, 0x00, 0x00, 0x00, 0x00, 0x00, 0x00, 0x00, 0x00, 0x00, 0x00,
  0x00, 0x00, 0x00, 0x00, 0x00, 0x00, 0x00, 0x00, 0x00, 0x00, 0x00, 0x00,
  0x00, 0x00, 0x00, 0x00, 0x00, 0x00, 0x00, 0x00, 0x00, 0x00, 0x00, 0x00,
  0x00, 0x00, 0x00, 0x00, 0x00, 0x00, 0x00, 0x00, 0x00, 0x00, 0x00, 0x00,
  0x10, 0x00, 0x00, 0x00, 0x7d, 0x55, 0x9b, 0x39, 0xfe, 0x41, 0x03, 0x3a,
  0xeb, 0xbc, 0xda, 0x39, 0x61, 0x59, 0x13, 0x3a, 0xde, 0x45, 0xba, 0x39,
  0x21, 0x8c, 0x1f, 0x3a, 0xdf, 0x42, 0xd3, 0x39, 0x1c, 0xc9, 0x10, 0x3a,
  0x0a, 0x3b, 0x07, 0x3a, 0xc9, 0x56, 0x20, 0x3a, 0x9d, 0x30, 0xbf, 0x39,
  0x12, 0x32, 0x94, 0x39, 0xce, 0xc6, 0xc5, 0x39, 0xcf, 0xcb, 0xf2, 0x39,
  0x6c, 0x19, 0xf3, 0x39, 0x9b, 0x59, 0x83, 0x39, 0x12, 0x00, 0x00, 0x00,
  0x74, 0x66, 0x6c, 0x2e, 0x70, 0x73, 0x65, 0x75, 0x64, 0x6f, 0x5f, 0x71,
  0x63, 0x6f, 0x6e, 0x73, 0x74, 0x32, 0x00, 0x00, 0x01, 0x00, 0x00, 0x00,
  0x10, 0x00, 0x00, 0x00, 0x12, 0xfe, 0xff, 0xff, 0x00, 0x00, 0x00, 0x01,
  0x14, 0x00, 0x00, 0x00, 0x30, 0x00, 0x00, 0x00, 0x08, 0x00, 0x00, 0x00,
  0x00, 0x00, 0x00, 0x09, 0x3c, 0x00, 0x00, 0x00, 0xfc, 0xfd, 0xff, 0xff,
  0x08, 0x00, 0x00, 0x00, 0x10, 0x00, 0x00, 0x00, 0x01, 0x00, 0x00, 0x00,
  0x00, 0x00, 0x00, 0x00, 0x00, 0x00, 0x00, 0x00, 0x01, 0x00, 0x00, 0x00,
  0x17, 0x74, 0xde, 0x3b, 0x12, 0x00, 0x00, 0x00, 0x74, 0x66, 0x6c, 0x2e,
  0x70, 0x73, 0x65, 0x75, 0x64, 0x6f, 0x5f, 0x71, 0x63, 0x6f, 0x6e, 0x73,
  0x74, 0x31, 0x00, 0x00, 0x02, 0x00, 0x00, 0x00, 0x04, 0x00, 0x00, 0x00,
  0xd0, 0x00, 0x00, 0x00, 0x72, 0xfe, 0xff, 0xff, 0x00, 0x00, 0x00, 0x01,
  0x14, 0x00, 0x00, 0x00, 0x30, 0x00, 0x00, 0x00, 0x07, 0x00, 0x00, 0x00,
  0x00, 0x00, 0x00, 0x02, 0x3c, 0x00, 0x00, 0x00, 0x5c, 0xfe, 0xff, 0xff,
  0x08, 0x00, 0x00, 0x00, 0x10, 0x00, 0x00, 0x00, 0x01, 0x00, 0x00, 0x00,
  0x00, 0x00, 0x00, 0x00, 0x00, 0x00, 0x00, 0x00, 0x01, 0x00, 0x00, 0x00,
  0x67, 0xcc, 0x61, 0x39, 0x11, 0x00, 0x00, 0x00, 0x74, 0x66, 0x6c, 0x2e,
  0x70, 0x73, 0x65, 0x75, 0x64, 0x6f, 0x5f, 0x71, 0x63, 0x6f, 0x6e, 0x73,
  0x74, 0x00, 0x00, 0x00, 0x01, 0x00, 0x00, 0x00, 0x04, 0x00, 0x00, 0x00,
  0xce, 0xfe, 0xff, 0xff, 0x00, 0x00, 0x00, 0x01, 0x14, 0x00, 0x00, 0x00,
  0x14, 0x00, 0x00, 0x00, 0x06, 0x00, 0x00, 0x00, 0x00, 0x00, 0x00, 0x02,
  0x1c, 0x00, 0x00, 0x00, 0x10, 0xff, 0xff, 0xff, 0x0f, 0x00, 0x00, 0x00,
  0x61, 0x72, 0x69, 0x74, 0x68, 0x2e, 0x63, 0x6f, 0x6e, 0x73, 0x74, 0x61,
  0x6e, 0x74, 0x34, 0x00, 0x01, 0x00, 0x00, 0x00, 0x02, 0x00, 0x00, 0x00,
  0x0a, 0xff, 0xff, 0xff, 0x00, 0x00, 0x00, 0x01, 0x14, 0x00, 0x00, 0x00,
  0x14, 0x00, 0x00, 0x00, 0x05, 0x00, 0x00, 0x00, 0x00, 0x00, 0x00, 0x02,
  0x1c, 0x00, 0x00, 0x00, 0x4c, 0xff, 0xff, 0xff, 0x0f, 0x00, 0x00, 0x00,
  0x61, 0x72, 0x69, 0x74, 0x68, 0x2e, 0x63, 0x6f, 0x6e, 0x73, 0x74, 0x61,
  0x6e, 0x74, 0x33, 0x00, 0x01, 0x00, 0x00, 0x00, 0x04, 0x00, 0x00, 0x00,
  0x46, 0xff, 0xff, 0xff, 0x00, 0x00, 0x00, 0x01, 0x14, 0x00, 0x00, 0x00,
  0x14, 0x00, 0x00, 0x00, 0x04, 0x00, 0x00, 0x00, 0x00, 0x00, 0x00, 0x02,
  0x1c, 0x00, 0x00, 0x00, 0x88, 0xff, 0xff, 0xff, 0x0f, 0x00, 0x00, 0x00,
  0x61, 0x72, 0x69, 0x74, 0x68, 0x2e, 0x63, 0x6f, 0x6e, 0x73, 0x74, 0x61,
  0x6e, 0x74, 0x32, 0x00, 0x01, 0x00, 0x00, 0x00, 0x04, 0x00, 0x00, 0x00,
  0x82, 0xff, 0xff, 0xff, 0x00, 0x00, 0x00, 0x01, 0x14, 0x00, 0x00, 0x00,
  0x14, 0x00, 0x00, 0x00, 0x03, 0x00, 0x00, 0x00, 0x00, 0x00, 0x00, 0x02,
  0x1c, 0x00, 0x00, 0x00, 0xc4, 0xff, 0xff, 0xff, 0x0f, 0x00, 0x00, 0x00,
  0x61, 0x72, 0x69, 0x74, 0x68, 0x2e, 0x63, 0x6f, 0x6e, 0x73, 0x74, 0x61,
  0x6e, 0x74, 0x31, 0x00, 0x01, 0x00, 0x00, 0x00, 0x04, 0x00, 0x00, 0x00,
  0xbe, 0xff, 0xff, 0xff, 0x00, 0x00, 0x00, 0x01, 0x18, 0x00, 0x00, 0x00,
  0x18, 0x00, 0x00, 0x00, 0x02, 0x00, 0x00, 0x00, 0x00, 0x00, 0x00, 0x02,
  0x20, 0x00, 0x00, 0x00, 0x04, 0x00, 0x04, 0x00, 0x04, 0x00, 0x00, 0x00,
  0x0e, 0x00, 0x00, 0x00, 0x61, 0x72, 0x69, 0x74, 0x68, 0x2e, 0x63, 0x6f,
  0x6e, 0x73, 0x74, 0x61, 0x6e, 0x74, 0x00, 0x00, 0x01, 0x00, 0x00, 0x00,
  0x04, 0x00, 0x00, 0x00, 0x00, 0x00, 0x16, 0x00, 0x1c, 0x00, 0x18, 0x00,
  0x17, 0x00, 0x10, 0x00, 0x0c, 0x00, 0x08, 0x00, 0x00, 0x00, 0x00, 0x00,
  0x00, 0x00, 0x07, 0x00, 0x16, 0x00, 0x00, 0x00, 0x00, 0x00, 0x00, 0x01,
  0x20, 0x00, 0x00, 0x00, 0x3c, 0x00, 0x00, 0x00, 0x01, 0x00, 0x00, 0x00,
  0x00, 0x00, 0x00, 0x09, 0x48, 0x00, 0x00, 0x00, 0x0c, 0x00, 0x0c, 0x00,
  0x00, 0x00, 0x00, 0x00, 0x08, 0x00, 0x04, 0x00, 0x0c, 0x00, 0x00, 0x00,
  0x08, 0x00, 0x00, 0x00, 0x10, 0x00, 0x00, 0x00, 0x01, 0x00, 0x00, 0x00,
  0x08, 0x00, 0x00, 0x00, 0x00, 0x00, 0x00, 0x00, 0x01, 0x00, 0x00, 0x00,
  0xa0, 0x65, 0x52, 0x3d, 0x13, 0x00, 0x00, 0x00, 0x73, 0x65, 0x72, 0x76,
  0x69, 0x6e, 0x67, 0x5f, 0x64, 0x65, 0x66, 0x61, 0x75, 0x6c, 0x74, 0x5f,
  0x78, 0x3a, 0x30, 0x00, 0x02, 0x00, 0x00, 0x00, 0x01, 0x00, 0x00, 0x00,
  0x8a, 0x02, 0x00, 0x00, 0x05, 0x00, 0x00, 0x00, 0x6c, 0x00, 0x00, 0x00,
  0x4c, 0x00, 0x00, 0x00, 0x2c, 0x00, 0x00, 0x00, 0x18, 0x00, 0x00, 0x00,
  0x04, 0x00, 0x00, 0x00, 0xd0, 0xff, 0xff, 0xff, 0x19, 0x00, 0x00, 0x00,
  0x02, 0x00, 0x00, 0x00, 0x00, 0x00, 0x00, 0x19, 0xe0, 0xff, 0xff, 0xff,
  0x09, 0x00, 0x00, 0x00, 0x04, 0x00, 0x00, 0x00, 0x00, 0x00, 0x00, 0x09,
  0xf0, 0xff, 0xff, 0xff, 0x11, 0x00, 0x00, 0x00, 0x02, 0x00, 0x00, 0x00,
  0x00, 0x00, 0x00, 0x11, 0x0c, 0x00, 0x10, 0x00, 0x0f, 0x00, 0x00, 0x00,
  0x08, 0x00, 0x04, 0x00, 0x0c, 0x00, 0x00, 0x00, 0x03, 0x00, 0x00, 0x00,
  0x03, 0x00, 0x00, 0x00, 0x00, 0x00, 0x00, 0x03, 0x0c, 0x00, 0x0c, 0x00,
  0x0b, 0x00, 0x00, 0x00, 0x00, 0x00, 0x04, 0x00, 0x0c, 0x00, 0x00, 0x00,
  0x16, 0x00, 0x00, 0x00, 0x00, 0x00, 0x00, 0x16
};
unsigned int tflite_learn_1008244_5_len = 6488;
#endif // _EI_CLASSIFIER_TFLITE_LEARN_1008244_5_H_
